memory_initialization_radix=16;
memory_initialization_vector=
05,
01,
00,
00,
00,
00,
05,
02,
00,
00,
00,
00,
00,
00,
00,
00,
00,
00,
00,
00,
03,
00,
00,
02,
00,
00,
00,
02,
01,
00,
00,
01,
02,
00,
00,
00,
00,
00,
00,
08,
0a,
09,
00,
05,
09,
06,
00,
00,
00,
00,
00,
00,
02,
04,
02,
03,
04,
00,
00,
0c,
06,
00,
00,
00,
00,
00,
00,
00,
00,
00,
00,
00,
00,
00,
00,
00,
00,
00,
00,
00,
00,
00,
02,
05,
05,
00,
00,
09,
01,
00,
00,
01,
03,
01,
00,
01,
02,
02,
01,
02,
03,
01,
00,
00,
00,
01,
01,
00,
00,
00,
00,
04,
02,
00,
00,
06,
00,
00,
01,
02,
02,
01,
01,
01,
02,
06,
06,
0a,
03,
02,
00,
00,
00,
01,
01,
00,
00,
00,
00,
00,
04,
05,
00,
00,
00,
00,
02,
01,
01,
01,
02,
02,
07,
1f,
25,
26,
20,
22,
1b,
17,
0a,
0e,
08,
00,
00,
00,
00,
00,
03,
00,
00,
00,
00,
02,
02,
00,
01,
01,
03,
04,
0f,
1a,
1b,
20,
29,
29,
21,
1b,
15,
1d,
1e,
05,
00,
00,
00,
00,
00,
00,
00,
00,
00,
02,
03,
01,
01,
03,
06,
0c,
10,
13,
15,
1c,
2a,
2c,
24,
18,
13,
12,
20,
19,
01,
00,
00,
02,
0d,
00,
01,
01,
00,
02,
01,
01,
02,
07,
0b,
0b,
0f,
10,
17,
24,
31,
32,
2e,
1c,
13,
0d,
1e,
24,
05,
00,
00,
00,
00,
00,
03,
03,
02,
02,
00,
01,
03,
0b,
13,
0a,
11,
1c,
1f,
1b,
22,
2b,
32,
2d,
1a,
10,
1d,
2f,
0d,
00,
00,
00,
00,
00,
08,
00,
01,
01,
00,
06,
0f,
18,
0f,
1e,
23,
26,
11,
01,
02,
11,
27,
32,
27,
21,
26,
31,
1d,
00,
00,
00,
00,
07,
00,
01,
00,
00,
09,
16,
17,
10,
17,
23,
22,
0a,
00,
00,
00,
00,
05,
28,
2b,
2d,
31,
3c,
29,
00,
00,
00,
00,
02,
00,
00,
00,
03,
1c,
1b,
11,
11,
22,
28,
17,
00,
00,
00,
00,
00,
00,
15,
28,
2c,
3d,
42,
36,
00,
00,
00,
00,
09,
01,
00,
00,
0e,
25,
24,
15,
1f,
2d,
1e,
01,
00,
00,
00,
00,
00,
00,
07,
1c,
27,
39,
40,
34,
05,
00,
00,
00,
00,
00,
00,
00,
1d,
24,
26,
20,
29,
2a,
0b,
00,
00,
00,
00,
00,
00,
00,
08,
1d,
24,
35,
40,
36,
06,
00,
00,
00,
00,
00,
00,
02,
23,
1e,
29,
25,
2f,
29,
01,
00,
00,
00,
00,
00,
00,
01,
17,
1b,
1d,
28,
35,
2d,
04,
00,
00,
00,
00,
00,
00,
03,
20,
23,
20,
2b,
36,
28,
00,
00,
00,
00,
00,
00,
00,
0b,
1f,
18,
1b,
21,
29,
1b,
01,
00,
00,
00,
00,
00,
00,
03,
1f,
1d,
21,
27,
3e,
2f,
00,
00,
00,
00,
00,
00,
04,
17,
18,
12,
16,
20,
1e,
15,
02,
00,
0d,
00,
00,
00,
00,
01,
1d,
1b,
1d,
27,
3a,
36,
08,
00,
00,
00,
00,
00,
0d,
16,
14,
10,
19,
20,
11,
0d,
00,
00,
00,
02,
0c,
01,
00,
02,
17,
1e,
1f,
20,
33,
37,
21,
04,
00,
00,
01,
08,
15,
16,
0d,
0f,
16,
19,
0d,
06,
01,
00,
00,
00,
0e,
02,
00,
04,
1c,
1d,
1a,
1b,
2a,
38,
32,
1e,
0e,
07,
0b,
0e,
0e,
06,
09,
0e,
16,
0f,
04,
01,
00,
00,
00,
00,
00,
00,
00,
01,
18,
22,
1d,
16,
20,
2c,
31,
27,
14,
0f,
0e,
0a,
01,
03,
07,
0e,
0f,
08,
02,
00,
00,
0f,
05,
00,
00,
00,
01,
00,
0a,
1d,
21,
21,
21,
25,
2c,
2a,
2d,
21,
1d,
12,
13,
09,
0c,
04,
03,
02,
01,
00,
00,
0a,
07,
01,
03,
00,
00,
01,
00,
01,
10,
15,
1f,
27,
2f,
32,
2f,
2d,
21,
17,
10,
01,
01,
01,
01,
00,
00,
00,
01,
00,
00,
04,
00,
00,
00,
01,
01,
00,
00,
00,
00,
02,
04,
0f,
10,
0c,
07,
00,
00,
00,
00,
00,
00,
00,
00,
00,
00,
00,
00,
00,
00,
00,
00,
00,
00,
00,
00,
00,
00,
00,
00,
00,
00,
00,
00,
00,
00,
00,
00,
00,
00,
00,
00,
00,
00,
00,
00,
00,
00,
00,
00,
00,
00,
00,
00,
00,
00,
00,
00,
00,
00,
00,
00,
00,
00,
00,
00,
00,
00,
00,
00,
00,
00,
00,
03,
05,
01,
03,
05,
00,
00,
00,
00,
00,
00,
00,
00,
00,
00,
00,
00,
00,
00,
00,
00,
00,
00,
00,
00,
04,
00,
02,
03,
00,
00;
